<unk>	0
<s>	0
</s>	0
.	-1.91173
▁one	-2.95533
▁ekak	-3.8177
▁ape	-3.99991
▁eka	-4.0122
?	-4.20605
▁help	-4.31805
▁kenek	-4.37745
▁wela	-4.449
▁safe	-4.4993
▁gedara	-4.64028
▁ba	-4.644
▁me	-4.6464
▁ne	-4.69008
▁water	-4.72058
▁please	-4.82683
▁hoyaganna	-4.83963
▁karanna	-4.84006
▁food	-4.89241
▁shelter	-4.93704
▁missing	-4.93704
a	-4.95074
▁on	-4.95402
▁place	-4.99865
▁area	-5.00574
▁innawa	-5.0299
,	-5.07832
▁medical	-5.07859
▁rescue	-5.09753
▁family	-5.10406
▁api	-5.1662
▁eke	-5.18075
▁watura	-5.213
▁ekata	-5.23423
▁yanna	-5.32507
▁denna	-5.37107
▁na	-5.42098
▁tikak	-5.47797
▁ekk	-5.47914
▁inne	-5.48014
▁team	-5.55591
▁road	-5.59616
▁ewanna	-5.59896
▁patient	-5.64107
▁.	-5.6739
▁medicine	-5.67906
▁	-5.72485
▁saha	-5.73463
▁baby	-5.78413
▁ewnn	-5.78419
nawa	-5.80559
▁athule	-5.83676
▁supply	-5.83677
▁puluwanda	-5.83909
▁nisa	-5.89231
▁phone	-5.89231
▁apit	-5.8925
da	-5.91299
▁wel	-5.94088
▁drinking	-5.95114
▁clean	-5.95116
▁kanna	-5.95212
▁ecak	-5.95245
▁aya	-5.95312
▁thiyenawa	-6.00485
▁w	-6.03992
▁onee	-6.07521
▁cenek	-6.08031
▁kenekta	-6.08447
▁hoya	-6.11049
▁ek	-6.11931
▁eca	-6.15034
▁roof	-6.15173
▁open	-6.15173
▁damage	-6.15174
▁building	-6.15175
▁doctor	-6.1518
▁oone	-6.15188
e	-6.16275
ila	-6.17192
▁stuck	-6.22866
▁urgently	-6.23004
▁hoyala	-6.23205
▁ta	-6.23619
▁da	-6.23819
▁dan	-6.30723
▁charge	-6.31199
▁gihin	-6.31201
▁current	-6.31202
▁transport	-6.31203
▁supplies	-6.31204
▁thuwala	-6.31529
▁nangi	-6.40246
▁sick	-6.40299
▁arakshitha	-6.4038
▁innwa	-6.40393
▁ambulance	-6.41121
▁kama	-6.48994
▁denek	-6.50222
▁koh	-6.5029
▁6	-6.5029
▁beragnn	-6.5029
▁house	-6.5029
▁plwnd	-6.5029
▁tree	-6.5029
▁center	-6.50293
▁amma	-6.50294
▁bonna	-6.50305
▁ekaak	-6.50625
awada	-6.51076
la	-6.57109
▁ap	-6.60436
▁rice	-6.60733
▁tika	-6.61318
▁relief	-6.61401
▁beheth	-6.61401
▁lamai	-6.61401
▁ahara	-6.61401
▁godak	-6.61403
▁person	-6.61404
▁karaganna	-6.61405
▁aape	-6.61421
▁immediate	-6.61446
h	-6.61457
▁knna	-6.61513
▁ganna	-6.61706
▁ikmanata	-6.6173
▁enawad	-6.62218
▁inn	-6.71504
▁b	-6.72077
▁n	-6.73152
▁child	-6.73744
▁deyak	-6.73901
▁thikak	-6.73901
▁battery	-6.73902
▁support	-6.73905
▁boat	-6.73909
▁trapped	-6.73911
▁amarui	-6.73911
▁awe	-6.74052
▁aran	-6.74094
▁innata	-6.74141
▁waturat	-6.7426
▁una	-6.74437
▁nathi	-6.84528
▁mge	-6.87586
▁eeka	-6.88109
▁foood	-6.88187
▁viyali	-6.88195
▁clothes	-6.88198
▁putha	-6.88199
▁bottle	-6.88243
▁yata	-6.88385
▁iwara	-6.8847
▁roadh	-6.88698
ha	-6.95859
r	-6.97965
n	-7.02615
▁enn	-7.03547
nna	-7.03972
▁urgent	-7.04775
▁plaace	-7.04853
▁shelther	-7.04853
▁shlter	-7.04853
▁tiikak	-7.04853
▁ynna	-7.04853
▁wter	-7.04853
▁wathura	-7.04854
▁knek	-7.04857
▁information	-7.04864
▁innava	-7.04882
ly	-7.0496
▁thanata	-7.04984
▁keenek	-7.05041
▁pu	-7.05048
▁emergency	-7.05064
▁lamaya	-7.05164
▁ekakata	-7.06431
▁aapi	-7.0709
▁gnn	-7.07231
k	-7.08955
anna	-7.10822
▁inna	-7.15872
▁apii	-7.16374
▁baa	-7.16482
▁apee	-7.18876
▁wat	-7.2063
▁welaa	-7.20822
s	-7.21466
ambulance	-7.23027
▁ekt	-7.23868
t	-7.23957
▁flood	-7.24839
▁5	-7.24853
▁baaby	-7.24853
▁brother	-7.24853
▁collapse	-7.24853
▁contact	-7.24853
▁driinking	-7.24853
▁gedaara	-7.24853
▁geedara	-7.24853
▁heelp	-7.24853
▁hlp	-7.24853
▁homeless	-7.24853
▁ikmnt	-7.24853
▁items	-7.24853
▁kandaurat	-7.24853
▁mobile	-7.24853
▁night	-7.24853
▁old	-7.24853
▁people	-7.24853
▁pump	-7.24853
▁situation	-7.24853
▁thankt	-7.24853
▁wessa	-7.24853
▁thiyenawanam	-7.24853
▁dawas	-7.24854
▁idala	-7.24854
▁tkk	-7.24854
▁hari	-7.24854
▁tank	-7.24854
▁keneek	-7.24856
▁station	-7.24857
▁block	-7.24857
▁clearance	-7.24858
▁room	-7.24859
om	-7.24861
▁dry	-7.24862
▁temporary	-7.24864
▁weela	-7.2487
▁ain	-7.24938
▁denekta	-7.25003
▁nathiwa	-7.25034
▁kawada	-7.25089
▁elderly	-7.25108
▁eekak	-7.25122
▁wath	-7.25587
▁th	-7.25752
▁gedarata	-7.25817
ada	-7.26446
▁dann	-7.26773
eda	-7.27192
wath	-7.28115
▁la	-7.28149
▁daa	-7.28234
▁ve	-7.30193
▁pleasee	-7.32048
wa	-7.3399
l	-7.39915
ge	-7.40664
▁gedaraa	-7.41538
▁we	-7.43487
▁hoy	-7.48224
▁puluwand	-7.48647
▁thuwal	-7.48784
▁dangerous	-7.49853
▁famly	-7.49853
▁fuel	-7.49853
▁gedhara	-7.49853
▁hospital	-7.49853
▁inspect	-7.49853
▁medhicine	-7.49853
▁ookm	-7.49853
▁parcel	-7.49853
▁pharmacy	-7.49853
▁reskue	-7.49853
▁roaad	-7.49853
▁school	-7.49853
▁unconscious	-7.49853
▁widihak	-7.49853
▁electricity	-7.49853
▁karnna	-7.49853
▁send	-7.49853
▁rations	-7.49854
▁lo	-7.49854
▁caranna	-7.49854
▁main	-7.49854
▁flashlight	-7.49854
▁gas	-7.49854
▁dewal	-7.49854
▁petrol	-7.49854
▁injured	-7.49856
▁bandage	-7.49857
▁vehicle	-7.49859
▁milk	-7.49859
▁lamayek	-7.49862
▁kids	-7.49864
▁evacuation	-7.49867
▁thanak	-7.49868
▁cylinder	-7.49868
▁officer	-7.49868
▁kenk	-7.4987
▁balaporoththu	-7.49877
▁dennek	-7.49877
▁dhal	-7.49878
▁udau	-7.49885
▁natiwa	-7.49904
▁tkak	-7.49905
▁wather	-7.49927
▁paththata	-7.49933
▁uda	-7.49967
▁walata	-7.50028
▁krnna	-7.50049
▁wayasaka	-7.5005
▁ammata	-7.50054
▁thama	-7.50074
▁asthma	-7.50172
▁paththe	-7.50176
▁dnna	-7.5018
▁wenna	-7.50293
▁and	-7.50404
▁hoyanna	-7.50915
▁karalad	-7.50947
▁dhe	-7.51043
▁apiwa	-7.51177
es	-7.51757
▁t	-7.5188
▁enna	-7.54405
▁c	-7.54621
ta	-7.56255
edi	-7.57507
▁mee	-7.60344
in	-7.72383
ata	-7.77095
ra	-7.77122
▁g	-7.77951
▁k	-7.78296
w	-7.79098
▁wa	-7.79252
er	-7.80329
u	-7.80988
c	-7.81267
▁un	-7.81657
▁karann	-7.81889
▁ewann	-7.81957
▁gen	-7.82048
▁ikmanat	-7.82104
▁aw	-7.82956
▁members	-7.8297
▁tiyen	-7.83046
ing	-7.83051
▁urgnt	-7.83097
▁clear	-7.83178
▁dhanger	-7.83187
▁available	-7.83187
▁blankets	-7.83187
▁docthor	-7.83187
▁famiily	-7.83187
▁gahagen	-7.83187
▁hungry	-7.83187
▁kharge	-7.83187
▁medcal	-7.83187
▁medhical	-7.83187
▁missiing	-7.83187
▁network	-7.83187
▁plake	-7.83187
▁plce	-7.83187
▁ptient	-7.83187
▁resce	-7.83187
▁rooad	-7.83187
▁rscue	-7.83187
▁sheelter	-7.83187
▁signal	-7.83187
▁transpoort	-7.83187
▁trnsport	-7.83187
▁waater	-7.83187
▁teemporary	-7.83187
▁theam	-7.83187
▁gdara	-7.83187
▁danger	-7.83187
▁wateer	-7.83187
▁seeya	-7.83188
▁blood	-7.8319
▁hyaganna	-7.8319
▁condition	-7.83193
▁cooking	-7.83197
▁communication	-7.83199
▁accommodation	-7.83199
▁candles	-7.83202
▁torch	-7.83206
▁fever	-7.83208
▁flooded	-7.83215
▁break	-7.83215
▁batteries	-7.83221
▁rain	-7.83228
▁urgntly	-7.83276
▁tikaak	-7.83279
▁ece	-7.83282
▁dekak	-7.83295
▁eeke	-7.83297
▁tiyenne	-7.83327
▁unsafe	-7.83349
▁lamayata	-7.83362
▁membersla	-7.83404
▁tuwala	-7.83466
▁sha	-7.83547
▁kenektha	-7.83642
▁childh	-7.83654
▁upakara	-7.83658
▁apt	-7.83695
▁ekatha	-7.83928
▁gena	-7.84344
▁ara	-7.84366
▁wada	-7.8616
▁foodh	-7.86249
▁paththa	-7.86351
▁kiya	-7.86545
▁watr	-7.90859
va	-7.91098
▁rescuee	-7.94152
▁placee	-7.95401
▁hoyana	-7.95516
▁a	-7.9692
age	-7.974
▁evacuat	-7.98806
▁ekataa	-8.00713
th	-8.01896
▁m	-8.04318
▁s	-8.07085
▁e	-8.1344
i	-8.25024
yanna	-8.2558
▁d	-8.26886
▁i	-8.27026
▁pathth	-8.27365
d	-8.28407
▁dh	-8.29141
▁denn	-8.3169
tion	-8.31724
▁ay	-8.31921
▁innaw	-8.31924
o	-8.31955
▁ple	-8.32049
▁are	-8.32267
▁hoyal	-8.32439
▁pleas	-8.32462
▁plac	-8.32474
▁rescu	-8.32486
▁mmbers	-8.32951
▁nati	-8.33072
▁amaru	-8.33137
iyali	-8.33153
▁accommoda	-8.33166
▁condit	-8.33175
▁aathule	-8.33187
▁arakshita	-8.33187
▁athuule	-8.33187
▁atule	-8.33187
▁bilding	-8.33187
▁blankts	-8.33187
▁buuilding	-8.33187
▁centher	-8.33187
▁centr	-8.33187
▁chiild	-8.33187
▁chld	-8.33187
▁dheyak	-8.33187
▁dhrinking	-8.33187
▁eldherly	-8.33187
▁faamily	-8.33187
▁fmily	-8.33187
▁gahaagen	-8.33187
▁geeneral	-8.33187
▁huungry	-8.33187
▁ikmnata	-8.33187
▁mdicine	-8.33187
▁medcine	-8.33187
▁meedicine	-8.33187
▁miissing	-8.33187
▁missng	-8.33187
▁mssing	-8.33187
▁nethwork	-8.33187
▁pathient	-8.33187
▁pattha	-8.33187
▁pleease	-8.33187
▁puutha	-8.33187
▁sanitary	-8.33187
▁sanitry	-8.33187
▁seeeya	-8.33187
▁shelteer	-8.33187
▁sheltr	-8.33187
▁signl	-8.33187
▁siick	-8.33187
▁teeam	-8.33187
▁thththa	-8.33187
▁udha	-8.33187
▁wtura	-8.33187
▁thiiyen	-8.33187
▁hooy	-8.33187
▁plase	-8.33187
▁watuura	-8.33187
ambulanke	-8.33187
▁phne	-8.33187
▁tem	-8.33187
▁urgenthly	-8.33187
▁yatha	-8.33189
▁rike	-8.3319
▁nsa	-8.33192
ood	-8.33196
▁thanaata	-8.332
▁fod	-8.33201
▁iinnawa	-8.33203
▁rod	-8.33203
▁sfe	-8.33209
▁taththa	-8.33209
▁cleea	-8.33216
▁aarea	-8.33218
ck	-8.33221
▁hoyganna	-8.33243
▁genera	-8.33277
▁blo	-8.33287
▁bo	-8.33311
▁tikk	-8.33318
▁eck	-8.33384
▁eekakata	-8.33384
▁arn	-8.33413
▁mmbersla	-8.33423
▁tam	-8.33438
▁thiyenna	-8.33478
▁canna	-8.33488
▁thiyenne	-8.33541
hin	-8.3357
▁nangii	-8.33611
▁daan	-8.33864
▁evacuate	-8.3399
se	-8.3401
ama	-8.34211
▁f	-8.34361
ation	-8.34365
▁u	-8.34622
▁urgeent	-8.34757
▁mgee	-8.36163
▁apith	-8.36193
▁ekat	-8.36896
▁ricee	-8.37181
▁ka	-8.37244
▁cle	-8.39092
▁ekaa	-8.39123
enna	-8.39389
▁ekta	-8.39494
▁kamaa	-8.41611
▁thiyeenawa	-8.41802
▁thiyen	-8.41918
▁medicinee	-8.44169
el	-8.45144
▁nathii	-8.49933
▁hoyan	-8.50941
▁ev	-8.51957
▁ekee	-8.54129
na	-8.55089
thion	-8.562
▁informa	-8.57286
awa	-8.60338
▁yannaa	-8.63881
▁p	-8.66442
▁innat	-8.67105
▁st	-8.70248
▁mi	-8.72647
kak	-8.77496
▁karannaa	-8.88936
▁hoyagannaa	-8.89344
hion	-8.90469
ri	-9.01929
▁dn	-9.02511
tha	-9.03191
▁v	-9.07275
▁co	-9.10284
v	-9.10537
nava	-9.16842
▁ki	-9.21246
dical	-9.23269
enawa	-9.24514
▁enaw	-9.24843
les	-9.25542
wada	-9.25743
m	-9.25935
▁karal	-9.2729
and	-9.28654
on	-9.28798
nn	-9.28935
▁lamay	-9.2967
▁ar	-9.29877
fe	-9.29969
▁inform	-9.301
f	-9.30188
▁gedar	-9.30582
▁hoyagann	-9.31045
urgently	-9.31064
yata	-9.31157
upakara	-9.31244
emergency	-9.31311
elderly	-9.31331
iwara	-9.31355
▁asthm	-9.31358
▁tik	-9.31368
nd	-9.31414
▁yann	-9.31555
cara	-9.3159
▁arakshith	-9.31668
▁sah	-9.31843
▁evacua	-9.31857
▁saf	-9.31951
▁amm	-9.31961
▁tuwal	-9.32029
▁kann	-9.32039
▁wayasak	-9.32053
▁krnn	-9.32061
▁iwar	-9.32063
▁thanat	-9.32132
▁cloth	-9.32162
aya	-9.32177
▁tham	-9.32231
rgency	-9.32278
▁eld	-9.32289
▁thiy	-9.32441
▁walat	-9.3248
▁immediat	-9.32563
▁unsaf	-9.32575
▁ambulanc	-9.3258
▁bottl	-9.32599
▁mg	-9.32602
▁ric	-9.3262
▁suppli	-9.32758
▁flo	-9.32783
▁bat	-9.32784
▁em	-9.32849
ngi	-9.32905
ion	-9.32966
atura	-9.32976
▁hoyaga	-9.32978
▁kara	-9.32979
▁o	-9.32985
▁thana	-9.3302
ry	-9.33026
▁sic	-9.33037
atteries	-9.33044
alaporoththu	-9.33051
ansport	-9.33053
▁build	-9.33059
ed	-9.33064
ical	-9.33098
▁feve	-9.33098
▁cylinde	-9.33101
▁office	-9.33102
am	-9.33103
▁ro	-9.33105
rapped	-9.33107
emporary	-9.33107
aththa	-9.33113
oat	-9.33117
orch	-9.3312
octor	-9.33121
▁medici	-9.33122
▁ikman	-9.33128
rrent	-9.33135
▁nang	-9.33139
▁rai	-9.33142
upport	-9.33143
▁gih	-9.33143
atient	-9.33144
erson	-9.33145
▁trappe	-9.33146
uluwanda	-9.33148
lean	-9.33152
kshitha	-9.33152
▁clo	-9.33152
ance	-9.33154
ehicle	-9.33154
▁docto	-9.33154
▁medic	-9.33154
▁doct	-9.33157
▁communicati	-9.3316
▁communic	-9.33162
ooking	-9.33165
▁injur	-9.33172
ttle	-9.33173
ble	-9.33174
▁curre	-9.33175
▁kid	-9.33176
▁hya	-9.33176
tery	-9.33178
▁puluwa	-9.33178
pply	-9.33178
▁pati	-9.33179
trol	-9.3318
urrent	-9.33182
ashlight	-9.33182
othes	-9.33183
▁op	-9.33183
escue	-9.33185
▁ambula	-9.33186
oof	-9.33186
yenna	-9.33186
ectricity	-9.33186
▁hosp	-9.33186
▁upa	-9.33186
armacy	-9.33187
ency	-9.33187
onscious	-9.33187
orary	-9.33187
▁avail	-9.33187
▁drinki	-9.33187
▁scho	-9.33187
▁tempo	-9.33187
▁viy	-9.33187
dihak	-9.33187
▁insp	-9.33187
▁emerge	-9.33187
▁candl	-9.33189
▁reli	-9.33197
or	-9.33199
ailable	-9.33199
▁suppo	-9.33214
ice	-9.33216
heth	-9.3323
enter	-9.33234
ransport	-9.3324
edhi	-9.33241
▁tea	-9.33255
▁batter	-9.33255
▁god	-9.33263
▁buildi	-9.33277
tary	-9.33286
wadha	-9.33287
▁re	-9.3331
▁batt	-9.33317
▁cand	-9.33331
▁ged	-9.33345
ilk	-9.33349
▁fl	-9.33353
ver	-9.33357
uck	-9.3337
▁do	-9.3337
▁par	-9.3339
▁lam	-9.33394
▁su	-9.33397
▁ele	-9.33405
▁vi	-9.33413
amai	-9.33422
ort	-9.33434
▁see	-9.33451
rly	-9.33457
▁cu	-9.33457
▁to	-9.33594
ct	-9.33606
oded	-9.33659
hed	-9.33667
▁supplie	-9.33694
ate	-9.33794
ations	-9.33847
▁san	-9.33855
▁uns	-9.33883
ral	-9.33939
li	-9.33945
ent	-9.33946
▁elde	-9.34078
ergency	-9.34087
▁pha	-9.3409
▁clothe	-9.34148
▁eme	-9.34162
▁brea	-9.34219
tal	-9.34381
nt	-9.34393
lw	-9.34496
▁dam	-9.345
afe	-9.34611
▁tra	-9.34631
▁hoyann	-9.34643
erly	-9.34797
▁medi	-9.34896
araganna	-9.34903
▁raa	-9.35064
▁band	-9.3507
▁fla	-9.35143
aganna	-9.35642
▁ewa	-9.35724
wal	-9.35832
ue	-9.35973
anda	-9.36003
ranna	-9.36404
ase	-9.37108
▁plea	-9.37257
hs	-9.3746
▁sa	-9.3785
aata	-9.38074
ak	-9.38333
▁ah	-9.38521
▁de	-9.38539
▁dha	-9.38655
▁pe	-9.3933
▁ce	-9.39435
j	-10.5481
5	-10.5482
6	-10.5483
b	-10.5484
y	-10.5485
g	-10.5486
p	-10.5487
